unsigned char g_model[] = {
  0x1c, 0x00, 0x00, 0x00, 0x54, 0x46, 0x4c, 0x33, 0x14, 0x00, 0x20, 0x00,
  0x1c, 0x00, 0x18, 0x00, 0x14, 0x00, 0x10, 0x00, 0x0c, 0x00, 0x00, 0x00,
  0x08, 0x00, 0x04, 0x00, 0x14, 0x00, 0x00, 0x00, 0x1c, 0x00, 0x00, 0x00,
  0x94, 0x00, 0x00, 0x00, 0xec, 0x00, 0x00, 0x00, 0x08, 0x09, 0x00, 0x00,
  0x18, 0x09, 0x00, 0x00, 0x00, 0x19, 0x00, 0x00, 0x03, 0x00, 0x00, 0x00,
  0x01, 0x00, 0x00, 0x00, 0x10, 0x00, 0x00, 0x00, 0x00, 0x00, 0x0a, 0x00,
  0x10, 0x00, 0x0c, 0x00, 0x08, 0x00, 0x04, 0x00, 0x0a, 0x00, 0x00, 0x00,
  0x0c, 0x00, 0x00, 0x00, 0x1c, 0x00, 0x00, 0x00, 0x3c, 0x00, 0x00, 0x00,
  0x0f, 0x00, 0x00, 0x00, 0x73, 0x65, 0x72, 0x76, 0x69, 0x6e, 0x67, 0x5f,
  0x64, 0x65, 0x66, 0x61, 0x75, 0x6c, 0x74, 0x00, 0x01, 0x00, 0x00, 0x00,
  0x04, 0x00, 0x00, 0x00, 0x94, 0xff, 0xff, 0xff, 0x11, 0x00, 0x00, 0x00,
  0x04, 0x00, 0x00, 0x00, 0x08, 0x00, 0x00, 0x00, 0x6f, 0x75, 0x74, 0x70,
  0x75, 0x74, 0x5f, 0x30, 0x00, 0x00, 0x00, 0x00, 0x01, 0x00, 0x00, 0x00,
  0x04, 0x00, 0x00, 0x00, 0xde, 0xf6, 0xff, 0xff, 0x04, 0x00, 0x00, 0x00,
  0x0b, 0x00, 0x00, 0x00, 0x69, 0x6e, 0x70, 0x75, 0x74, 0x5f, 0x6c, 0x61,
  0x79, 0x65, 0x72, 0x00, 0x02, 0x00, 0x00, 0x00, 0x34, 0x00, 0x00, 0x00,
  0x04, 0x00, 0x00, 0x00, 0xdc, 0xff, 0xff, 0xff, 0x14, 0x00, 0x00, 0x00,
  0x04, 0x00, 0x00, 0x00, 0x13, 0x00, 0x00, 0x00, 0x43, 0x4f, 0x4e, 0x56,
  0x45, 0x52, 0x53, 0x49, 0x4f, 0x4e, 0x5f, 0x4d, 0x45, 0x54, 0x41, 0x44,
  0x41, 0x54, 0x41, 0x00, 0x08, 0x00, 0x0c, 0x00, 0x08, 0x00, 0x04, 0x00,
  0x08, 0x00, 0x00, 0x00, 0x13, 0x00, 0x00, 0x00, 0x04, 0x00, 0x00, 0x00,
  0x13, 0x00, 0x00, 0x00, 0x6d, 0x69, 0x6e, 0x5f, 0x72, 0x75, 0x6e, 0x74,
  0x69, 0x6d, 0x65, 0x5f, 0x76, 0x65, 0x72, 0x73, 0x69, 0x6f, 0x6e, 0x00,
  0x15, 0x00, 0x00, 0x00, 0x18, 0x08, 0x00, 0x00, 0x10, 0x08, 0x00, 0x00,
  0xf8, 0x07, 0x00, 0x00, 0xdc, 0x07, 0x00, 0x00, 0x9c, 0x07, 0x00, 0x00,
  0x4c, 0x07, 0x00, 0x00, 0x3c, 0x06, 0x00, 0x00, 0xec, 0x05, 0x00, 0x00,
  0x5c, 0x01, 0x00, 0x00, 0x2c, 0x01, 0x00, 0x00, 0xd4, 0x00, 0x00, 0x00,
  0xcc, 0x00, 0x00, 0x00, 0xc4, 0x00, 0x00, 0x00, 0xbc, 0x00, 0x00, 0x00,
  0xb4, 0x00, 0x00, 0x00, 0xac, 0x00, 0x00, 0x00, 0xa4, 0x00, 0x00, 0x00,
  0x9c, 0x00, 0x00, 0x00, 0x94, 0x00, 0x00, 0x00, 0x74, 0x00, 0x00, 0x00,
  0x04, 0x00, 0x00, 0x00, 0xaa, 0xf7, 0xff, 0xff, 0x04, 0x00, 0x00, 0x00,
  0x60, 0x00, 0x00, 0x00, 0x0c, 0x00, 0x00, 0x00, 0x08, 0x00, 0x0e, 0x00,
  0x08, 0x00, 0x04, 0x00, 0x08, 0x00, 0x00, 0x00, 0x10, 0x00, 0x00, 0x00,
  0x28, 0x00, 0x00, 0x00, 0x00, 0x00, 0x06, 0x00, 0x08, 0x00, 0x04, 0x00,
  0x06, 0x00, 0x00, 0x00, 0x04, 0x00, 0x00, 0x00, 0x01, 0x00, 0x00, 0x00,
  0xeb, 0x03, 0x00, 0x00, 0x0c, 0x00, 0x18, 0x00, 0x14, 0x00, 0x10, 0x00,
  0x0c, 0x00, 0x04, 0x00, 0x0c, 0x00, 0x00, 0x00, 0x38, 0x52, 0x70, 0x10,
  0x24, 0xb4, 0xdf, 0xc5, 0x02, 0x00, 0x00, 0x00, 0x02, 0x00, 0x00, 0x00,
  0x04, 0x00, 0x00, 0x00, 0x06, 0x00, 0x00, 0x00, 0x32, 0x2e, 0x32, 0x30,
  0x2e, 0x30, 0x00, 0x00, 0x16, 0xf8, 0xff, 0xff, 0x04, 0x00, 0x00, 0x00,
  0x10, 0x00, 0x00, 0x00, 0x31, 0x2e, 0x31, 0x34, 0x2e, 0x30, 0x00, 0x00,
  0x00, 0x00, 0x00, 0x00, 0x00, 0x00, 0x00, 0x00, 0x98, 0xe9, 0xff, 0xff,
  0x9c, 0xe9, 0xff, 0xff, 0xa0, 0xe9, 0xff, 0xff, 0xa4, 0xe9, 0xff, 0xff,
  0xa8, 0xe9, 0xff, 0xff, 0xac, 0xe9, 0xff, 0xff, 0xb0, 0xe9, 0xff, 0xff,
  0xb4, 0xe9, 0xff, 0xff, 0x52, 0xf8, 0xff, 0xff, 0x04, 0x00, 0x00, 0x00,
  0x48, 0x00, 0x00, 0x00, 0xd3, 0x81, 0x21, 0x12, 0x89, 0x38, 0x93, 0xed,
  0x59, 0x3e, 0x3e, 0x81, 0x1b, 0x24, 0xf9, 0x0c, 0x2d, 0x92, 0x81, 0x14,
  0x1e, 0x9d, 0x2d, 0x3f, 0x37, 0xf0, 0xfb, 0xfa, 0x5f, 0x7f, 0x39, 0x48,
  0x64, 0xf6, 0x28, 0x13, 0x3d, 0x7b, 0x33, 0x2d, 0x7c, 0x09, 0x43, 0x7f,
  0x09, 0xe0, 0x81, 0x15, 0xbb, 0x37, 0x0a, 0xe8, 0x1a, 0x0e, 0xf1, 0xdd,
  0x00, 0x24, 0xea, 0x1f, 0x03, 0x8b, 0x81, 0x2d, 0x4b, 0xe0, 0x22, 0x09,
  0xa0, 0xd3, 0xb5, 0x81, 0xa6, 0xf8, 0xff, 0xff, 0x04, 0x00, 0x00, 0x00,
  0x20, 0x00, 0x00, 0x00, 0x19, 0x0b, 0x00, 0x00, 0x22, 0x09, 0x00, 0x00,
  0x81, 0xe8, 0xff, 0xff, 0xbe, 0x6d, 0xff, 0xff, 0x6e, 0xa9, 0xff, 0xff,
  0xc3, 0xfd, 0xff, 0xff, 0x81, 0x43, 0x00, 0x00, 0x03, 0x26, 0x00, 0x00,
  0xd2, 0xf8, 0xff, 0xff, 0x04, 0x00, 0x00, 0x00, 0x80, 0x04, 0x00, 0x00,
  0xa0, 0x16, 0xb4, 0xf1, 0xd1, 0xa6, 0x32, 0x4d, 0x3a, 0xf8, 0x2a, 0x03,
  0x29, 0x7f, 0x1f, 0xda, 0x05, 0xf0, 0x47, 0xe9, 0x0d, 0xd9, 0xe7, 0xcd,
  0x2a, 0xcb, 0xd2, 0x47, 0x39, 0x41, 0x17, 0xd2, 0x02, 0x21, 0xf3, 0x07,
  0xdc, 0x28, 0xdb, 0x02, 0xb7, 0x1a, 0xe1, 0x1c, 0x23, 0xae, 0xca, 0xd3,
  0xa7, 0xdc, 0x46, 0x22, 0x1e, 0x3b, 0x2a, 0xe7, 0xdd, 0x0c, 0xd7, 0x12,
  0x25, 0xec, 0xb2, 0xf9, 0x00, 0x0d, 0xd5, 0x23, 0xdb, 0xe6, 0xaf, 0xce,
  0x19, 0x06, 0x09, 0xf5, 0xad, 0x0d, 0xeb, 0x0a, 0x1d, 0xd3, 0x2d, 0x0d,
  0xf0, 0xf2, 0xbf, 0x03, 0x9d, 0xd7, 0xd5, 0x05, 0x1b, 0x81, 0xba, 0x9b,
  0x1d, 0x19, 0x12, 0x05, 0xf0, 0x24, 0xe8, 0x18, 0x1d, 0x01, 0xec, 0xff,
  0xe9, 0xe4, 0xc9, 0xfa, 0xe3, 0xeb, 0xfc, 0x02, 0x15, 0x0d, 0xb9, 0xe8,
  0x10, 0x17, 0x0e, 0xd6, 0xd2, 0xfc, 0x00, 0x0d, 0x42, 0x12, 0x24, 0x10,
  0xea, 0xe3, 0xee, 0xfa, 0x91, 0x0b, 0x24, 0x1d, 0x13, 0xdf, 0xfc, 0x30,
  0x12, 0xdf, 0xa5, 0xb4, 0x81, 0xc3, 0x11, 0x1f, 0x4b, 0xc6, 0xce, 0xba,
  0xea, 0x42, 0xec, 0x19, 0xfd, 0x19, 0xe2, 0x0a, 0xfd, 0x41, 0x0e, 0xee,
  0x16, 0xf7, 0xec, 0x8e, 0x98, 0xdf, 0x25, 0x1c, 0x2b, 0xf4, 0x29, 0xf7,
  0xe4, 0x38, 0x29, 0xfe, 0x34, 0x17, 0x0a, 0x14, 0x0e, 0x6a, 0xe6, 0xec,
  0xea, 0xf2, 0x1a, 0x00, 0x08, 0xd0, 0x37, 0x24, 0x62, 0xcb, 0x41, 0x47,
  0x36, 0x48, 0x15, 0x24, 0xfe, 0xe5, 0xe0, 0x29, 0x2f, 0x1b, 0xe6, 0x1a,
  0xc6, 0x21, 0x87, 0x27, 0x26, 0xad, 0xd7, 0xf1, 0xf7, 0x32, 0xd4, 0xc4,
  0xf6, 0xc0, 0x08, 0x31, 0x02, 0x04, 0x3b, 0xe0, 0xee, 0x10, 0xe5, 0x25,
  0x2c, 0x2a, 0x04, 0x41, 0x1e, 0xc1, 0x00, 0x63, 0xfc, 0x47, 0xda, 0xda,
  0xe5, 0x08, 0x11, 0x21, 0xed, 0x29, 0xd7, 0x81, 0xc8, 0xfc, 0x1c, 0x0a,
  0xce, 0x17, 0xec, 0xbe, 0x9d, 0xba, 0x25, 0x59, 0x22, 0xf5, 0x10, 0xc7,
  0xdc, 0xe7, 0x0d, 0x2a, 0x18, 0xce, 0xcb, 0xf1, 0xda, 0xe1, 0xec, 0xda,
  0x05, 0x08, 0x19, 0x07, 0x0b, 0x12, 0xfd, 0xf4, 0xc6, 0x07, 0xf7, 0x07,
  0x07, 0xf5, 0x13, 0xee, 0x9b, 0xf9, 0xf5, 0x0e, 0x07, 0xd1, 0xdb, 0x81,
  0xe6, 0x06, 0x06, 0xfe, 0xfe, 0xe8, 0x0d, 0xc7, 0x08, 0x0a, 0xfb, 0xfd,
  0x08, 0x14, 0x16, 0xe9, 0xe9, 0xf5, 0x05, 0x0d, 0x0c, 0xf4, 0xe0, 0xd8,
  0xe5, 0x04, 0xe9, 0xf8, 0xf9, 0xcb, 0xe2, 0x84, 0xed, 0xfc, 0x08, 0xf9,
  0x03, 0x05, 0xf2, 0xe7, 0x21, 0x09, 0x1d, 0x02, 0x02, 0x16, 0x08, 0x43,
  0xbd, 0x13, 0xaf, 0xe7, 0xf5, 0x2a, 0x1b, 0xdf, 0x28, 0xfb, 0x10, 0xfe,
  0x00, 0xd8, 0xfe, 0x11, 0xef, 0xe6, 0x0a, 0xc5, 0xf6, 0x19, 0x27, 0xf2,
  0x98, 0x65, 0xc2, 0xff, 0x1c, 0xb8, 0x37, 0x06, 0x2a, 0xd6, 0x0d, 0x66,
  0x28, 0x5f, 0xf9, 0xd7, 0x67, 0xfb, 0x09, 0xef, 0x53, 0x40, 0x34, 0x17,
  0x91, 0xe9, 0xd3, 0x11, 0xff, 0xb9, 0x3f, 0x5b, 0x46, 0xe1, 0xde, 0x04,
  0x02, 0xce, 0x23, 0x3a, 0x01, 0x16, 0x0f, 0xfe, 0xd3, 0x29, 0x7f, 0x38,
  0x32, 0xd2, 0xfb, 0xa1, 0xb3, 0x29, 0xd8, 0xc6, 0x2a, 0xce, 0xcf, 0xec,
  0xec, 0x02, 0x26, 0x16, 0x09, 0xe1, 0x29, 0x3e, 0x56, 0x34, 0x9d, 0xad,
  0x0f, 0xed, 0x2f, 0xa3, 0xc1, 0x24, 0x0c, 0x11, 0x12, 0xe5, 0xe1, 0x24,
  0x05, 0x5d, 0xf0, 0x1d, 0xcc, 0xf3, 0x22, 0x40, 0x3a, 0x0d, 0xc7, 0x95,
  0xcf, 0xad, 0x3c, 0xb3, 0xb1, 0x3d, 0xf4, 0x2b, 0x12, 0xb4, 0x65, 0x30,
  0x15, 0x7c, 0xb4, 0x81, 0x8b, 0xe9, 0xfa, 0x22, 0x2d, 0xc4, 0xbc, 0xa2,
  0xea, 0x01, 0xf9, 0x96, 0xb7, 0x04, 0x15, 0xf6, 0x54, 0xd3, 0x14, 0x02,
  0xf5, 0x5d, 0xf7, 0xb3, 0x30, 0xf7, 0x57, 0x30, 0x21, 0x13, 0xa2, 0x88,
  0x00, 0xd7, 0x19, 0xd9, 0xf9, 0x32, 0xce, 0x0c, 0x0d, 0xda, 0x27, 0x18,
  0xfd, 0x39, 0xcd, 0xa7, 0x0a, 0xf4, 0xf9, 0x06, 0xfa, 0xe7, 0xa5, 0xd0,
  0xf6, 0x8b, 0x3f, 0x23, 0x2e, 0x41, 0xac, 0xbc, 0x81, 0xe7, 0xe6, 0xe8,
  0x07, 0xe0, 0xb6, 0xf0, 0x1f, 0xee, 0x08, 0xeb, 0xe6, 0xf7, 0xe3, 0xa5,
  0xa9, 0x3f, 0xd6, 0x04, 0x1b, 0xf3, 0xfc, 0x27, 0x22, 0xd2, 0x02, 0xef,
  0xee, 0x0a, 0xd7, 0xe8, 0xf7, 0xfb, 0x06, 0x1b, 0x23, 0xe3, 0xc6, 0xea,
  0xb9, 0x31, 0xe0, 0x0c, 0x1c, 0xb7, 0x02, 0x14, 0x0c, 0xd4, 0xfe, 0x08,
  0x06, 0xf9, 0x0b, 0xf9, 0xf3, 0x16, 0x09, 0x1e, 0x20, 0xc0, 0x0c, 0x06,
  0xb2, 0x24, 0xe8, 0xee, 0x07, 0x81, 0x05, 0xf1, 0xfc, 0xd7, 0xf9, 0xce,
  0xd3, 0xef, 0xf6, 0xdb, 0x08, 0x2b, 0x0c, 0xf3, 0x0c, 0x0a, 0x0a, 0xf6,
  0xf9, 0xfa, 0x2a, 0x24, 0x23, 0x47, 0xec, 0xf4, 0xfc, 0x0b, 0xf8, 0x15,
  0x08, 0xeb, 0xff, 0xf0, 0x39, 0xca, 0xf1, 0xf6, 0xe3, 0x41, 0x15, 0xd1,
  0xca, 0xe1, 0xe9, 0x12, 0x34, 0xe0, 0x01, 0x02, 0xb4, 0x04, 0xc6, 0x14,
  0x12, 0xcf, 0x15, 0xf4, 0xcf, 0xcd, 0xf8, 0x03, 0x03, 0x02, 0x3a, 0xd3,
  0x8a, 0xf0, 0xcd, 0xfb, 0x1b, 0x91, 0xf8, 0xfe, 0x81, 0xe5, 0xde, 0xfd,
  0x0c, 0x91, 0x1f, 0x14, 0xe5, 0xf7, 0xd5, 0xc5, 0xf5, 0x04, 0x5a, 0x11,
  0x1c, 0x0a, 0x05, 0xe4, 0xee, 0x0b, 0x2e, 0x12, 0x13, 0xcc, 0x46, 0xff,
  0xf3, 0x1c, 0x01, 0xdc, 0xfe, 0x0a, 0xf9, 0x0d, 0x16, 0x0b, 0xc4, 0xb0,
  0xf2, 0x0d, 0x09, 0x28, 0x33, 0x16, 0x00, 0xdc, 0xd6, 0xf1, 0x0f, 0xcc,
  0xf1, 0x02, 0x19, 0xfe, 0x0d, 0xd9, 0x10, 0xf4, 0xe3, 0xf8, 0xfb, 0xf1,
  0xe4, 0x09, 0x19, 0x26, 0x15, 0xf9, 0xce, 0xa7, 0xbd, 0x01, 0xce, 0xfa,
  0x21, 0x81, 0xc6, 0xa4, 0xfc, 0xfa, 0x1f, 0xc3, 0xdf, 0xf0, 0x29, 0x01,
  0x0f, 0x14, 0x2d, 0x12, 0x1b, 0x23, 0x20, 0x12, 0xeb, 0x14, 0x2a, 0x1d,
  0x0f, 0x06, 0xf6, 0xae, 0xd6, 0xf5, 0xfe, 0xd3, 0xe9, 0xb5, 0x10, 0xcc,
  0x13, 0xee, 0xf4, 0x06, 0x17, 0x07, 0x04, 0xf0, 0x21, 0x10, 0xfb, 0x05,
  0x0d, 0x14, 0xdb, 0x81, 0xc6, 0x17, 0xd3, 0xf7, 0xf2, 0xd0, 0xf4, 0xbf,
  0xeb, 0xd2, 0x0f, 0xf8, 0x0a, 0x0b, 0x0e, 0xad, 0x21, 0xe8, 0x0a, 0x10,
  0x1e, 0x25, 0x16, 0x88, 0xc5, 0xff, 0x17, 0x19, 0x17, 0xbc, 0xb4, 0xca,
  0x01, 0xf9, 0xf5, 0xfb, 0x08, 0xfa, 0xdf, 0xe4, 0xee, 0xf6, 0xee, 0xf0,
  0xf8, 0x07, 0xd2, 0xc7, 0xde, 0xd4, 0x17, 0x12, 0x12, 0x34, 0x9d, 0xc9,
  0xde, 0x1a, 0xf7, 0x09, 0x10, 0xe6, 0xf5, 0xd5, 0x9e, 0x08, 0xf7, 0x08,
  0x10, 0x1c, 0xcd, 0xd2, 0xc4, 0x0d, 0xfe, 0x1e, 0x1a, 0xd9, 0xe4, 0x04,
  0xf4, 0xf3, 0x05, 0x09, 0x0b, 0x05, 0xd6, 0x8d, 0xcf, 0x1c, 0x11, 0x04,
  0x10, 0xcc, 0x81, 0xc4, 0x14, 0x2a, 0x34, 0xfa, 0x06, 0x38, 0xfc, 0x12,
  0xe6, 0x34, 0xb7, 0xed, 0xcc, 0xe1, 0xc7, 0xcd, 0x4b, 0x17, 0x26, 0x11,
  0x12, 0x1d, 0x00, 0x08, 0xe9, 0x36, 0x05, 0x07, 0x31, 0x82, 0xe6, 0x12,
  0xee, 0x19, 0xe7, 0x53, 0x1c, 0x28, 0xf6, 0x0a, 0xd2, 0x36, 0xfa, 0xeb,
  0xd9, 0xfe, 0x10, 0x05, 0x2c, 0x15, 0x34, 0xe1, 0xab, 0x08, 0x26, 0x11,
  0xfc, 0x37, 0x09, 0x04, 0xb6, 0x2b, 0x23, 0x2f, 0x2e, 0xf8, 0xe6, 0xdc,
  0xca, 0xfe, 0x04, 0xed, 0x81, 0xd7, 0x3c, 0xe2, 0xec, 0xb5, 0x10, 0xf7,
  0xf0, 0xf4, 0xe3, 0xd4, 0xdc, 0xf6, 0x28, 0x2c, 0xff, 0xee, 0xb8, 0xc2,
  0xcb, 0xdf, 0x32, 0x3b, 0x1d, 0xbc, 0x01, 0xdd, 0xf3, 0x30, 0x13, 0x07,
  0xe3, 0xfc, 0x0d, 0xfb, 0x05, 0xf2, 0xdc, 0xdf, 0xdc, 0xf7, 0xca, 0x07,
  0x03, 0xee, 0xa8, 0xe3, 0x12, 0xe9, 0xf0, 0x21, 0x29, 0xe3, 0xb2, 0xea,
  0xe9, 0x0b, 0x1f, 0x14, 0x1c, 0xde, 0xdd, 0xde, 0x81, 0xf3, 0xee, 0x05,
  0x16, 0xdb, 0xe4, 0x02, 0x21, 0xf8, 0xd7, 0x26, 0x1d, 0x00, 0xc4, 0xdc,
  0xe7, 0x1f, 0x17, 0x19, 0x26, 0x35, 0x01, 0x0f, 0xe5, 0xf1, 0xe2, 0xba,
  0xe1, 0xe1, 0x23, 0x08, 0x15, 0xb1, 0x11, 0x09, 0xe0, 0x38, 0xbe, 0x81,
  0xdd, 0x14, 0xec, 0x34, 0x25, 0xbe, 0x1d, 0xf1, 0x34, 0x23, 0xb6, 0x1b,
  0xf8, 0x10, 0x03, 0x25, 0x12, 0xaf, 0x0c, 0x18, 0x33, 0x30, 0x01, 0xf1,
  0xd9, 0x09, 0x20, 0x13, 0x0a, 0xd9, 0x17, 0x21, 0x0a, 0xf6, 0x0b, 0xb2,
  0xcf, 0xdb, 0x33, 0x59, 0x0d, 0xa0, 0x13, 0xf7, 0x01, 0x29, 0x13, 0xfb,
  0x5e, 0xfd, 0xff, 0xff, 0x04, 0x00, 0x00, 0x00, 0x40, 0x00, 0x00, 0x00,
  0xca, 0xff, 0xff, 0xff, 0x44, 0xfa, 0xff, 0xff, 0x7a, 0x05, 0x00, 0x00,
  0x31, 0xfe, 0xff, 0xff, 0x55, 0xff, 0xff, 0xff, 0x97, 0x04, 0x00, 0x00,
  0x0b, 0xfb, 0xff, 0xff, 0x2c, 0xf7, 0xff, 0xff, 0x01, 0xfe, 0xff, 0xff,
  0xcb, 0xfe, 0xff, 0xff, 0x1b, 0xfe, 0xff, 0xff, 0xa5, 0xfc, 0xff, 0xff,
  0xe5, 0xfe, 0xff, 0xff, 0xcb, 0xf8, 0xff, 0xff, 0xec, 0x02, 0x00, 0x00,
  0xc1, 0x01, 0x00, 0x00, 0xaa, 0xfd, 0xff, 0xff, 0x04, 0x00, 0x00, 0x00,
  0x00, 0x01, 0x00, 0x00, 0x0f, 0x92, 0x10, 0x0a, 0x1a, 0xf5, 0x18, 0x7f,
  0xed, 0xea, 0x6c, 0x28, 0xfc, 0xfc, 0xc9, 0x0c, 0x04, 0x64, 0xe9, 0x10,
  0x35, 0x1f, 0xd3, 0xda, 0x23, 0xe1, 0xce, 0xfe, 0x35, 0x0e, 0x7f, 0xf0,
  0x18, 0x52, 0x11, 0x5e, 0x7f, 0xeb, 0xdd, 0x5e, 0x3a, 0x82, 0x64, 0x2f,
  0x5d, 0x50, 0x74, 0xd1, 0x0f, 0x7f, 0xff, 0x08, 0x01, 0x0e, 0xd7, 0xaa,
  0x1d, 0x0c, 0xae, 0xe3, 0x27, 0xeb, 0x64, 0xfc, 0xf9, 0x7f, 0x14, 0x04,
  0xe6, 0x11, 0xde, 0x86, 0x25, 0x05, 0x8e, 0xe7, 0x10, 0x10, 0x43, 0x22,
  0x22, 0xbf, 0xa3, 0xa7, 0x94, 0x89, 0x08, 0xc1, 0xd6, 0xae, 0x9f, 0xf7,
  0x86, 0xf1, 0x2c, 0x7f, 0x29, 0xb0, 0x27, 0x81, 0x00, 0xc5, 0x91, 0x3c,
  0x03, 0xc0, 0xfc, 0xdd, 0xb1, 0xa1, 0xdc, 0x20, 0x15, 0x81, 0x1b, 0xf9,
  0xe6, 0x23, 0x16, 0x57, 0xfa, 0x1b, 0x57, 0x1f, 0xd7, 0xf8, 0x85, 0x0a,
  0x38, 0x01, 0xc2, 0xd3, 0x7f, 0xcd, 0xa4, 0x58, 0xe2, 0xf9, 0xf6, 0x24,
  0x22, 0x86, 0xee, 0xed, 0x0d, 0x7f, 0x1d, 0x00, 0x08, 0xeb, 0xda, 0xa6,
  0x03, 0xdf, 0xb0, 0xe6, 0x31, 0xfe, 0x78, 0x1f, 0xbc, 0x7f, 0x1e, 0xbb,
  0xb4, 0x9c, 0x9c, 0x61, 0xa6, 0x8f, 0xea, 0x09, 0x1e, 0x51, 0x3b, 0x17,
  0x19, 0xe9, 0xe8, 0x19, 0x5a, 0xfd, 0x25, 0x7f, 0x01, 0x07, 0x76, 0x3c,
  0x46, 0xe6, 0x11, 0xcb, 0xfe, 0x2e, 0x03, 0xec, 0xf0, 0x05, 0xea, 0x81,
  0x02, 0x11, 0xa9, 0xfb, 0x24, 0xfd, 0x38, 0x22, 0xd0, 0xd8, 0x08, 0x21,
  0x4c, 0xf8, 0x81, 0xd0, 0x19, 0x82, 0x39, 0x89, 0xa3, 0xfd, 0xeb, 0xcd,
  0x26, 0xdc, 0x2c, 0xd9, 0x9a, 0x23, 0x25, 0x8c, 0x32, 0x68, 0xbd, 0x31,
  0xb8, 0xcd, 0x81, 0x16, 0x8d, 0x5b, 0x0f, 0x27, 0x07, 0x9c, 0x81, 0xc9,
  0x51, 0xc2, 0xcc, 0xe8, 0x94, 0x56, 0xf4, 0xe1, 0xb6, 0xfe, 0xff, 0xff,
  0x04, 0x00, 0x00, 0x00, 0x40, 0x00, 0x00, 0x00, 0x0d, 0x00, 0x00, 0x00,
  0x2f, 0x01, 0x00, 0x00, 0xe2, 0x01, 0x00, 0x00, 0x25, 0x00, 0x00, 0x00,
  0x12, 0x00, 0x00, 0x00, 0x00, 0x00, 0x00, 0x00, 0x85, 0xfc, 0xff, 0xff,
  0x04, 0x01, 0x00, 0x00, 0xec, 0xf8, 0xff, 0xff, 0x6a, 0x00, 0x00, 0x00,
  0x00, 0x00, 0x00, 0x00, 0x02, 0xfe, 0xff, 0xff, 0x46, 0x00, 0x00, 0x00,
  0xdc, 0xfc, 0xff, 0xff, 0x82, 0x01, 0x00, 0x00, 0x00, 0x00, 0x00, 0x00,
  0x02, 0xff, 0xff, 0xff, 0x04, 0x00, 0x00, 0x00, 0x30, 0x00, 0x00, 0x00,
  0x47, 0xd4, 0xc2, 0x84, 0xd2, 0x0b, 0xfc, 0x45, 0x10, 0x81, 0x00, 0x36,
  0xc6, 0xf1, 0x30, 0x1b, 0x81, 0x33, 0xd4, 0x7a, 0x50, 0xcf, 0xff, 0xa9,
  0x84, 0x59, 0x1e, 0xc8, 0x6f, 0xe6, 0x40, 0x0f, 0x40, 0x37, 0x51, 0x01,
  0xd6, 0x0a, 0x1f, 0xc6, 0x7f, 0x01, 0xd5, 0x20, 0xdd, 0xf6, 0xae, 0x03,
  0x3e, 0xff, 0xff, 0xff, 0x04, 0x00, 0x00, 0x00, 0x0c, 0x00, 0x00, 0x00,
  0x27, 0x00, 0x00, 0x00, 0x35, 0x00, 0x00, 0x00, 0xa8, 0xff, 0xff, 0xff,
  0x56, 0xff, 0xff, 0xff, 0x04, 0x00, 0x00, 0x00, 0x08, 0x00, 0x00, 0x00,
  0x01, 0x00, 0x00, 0x00, 0x02, 0x00, 0x00, 0x00, 0xd0, 0xf0, 0xff, 0xff,
  0xd4, 0xf0, 0xff, 0xff, 0x0f, 0x00, 0x00, 0x00, 0x4d, 0x4c, 0x49, 0x52,
  0x20, 0x43, 0x6f, 0x6e, 0x76, 0x65, 0x72, 0x74, 0x65, 0x64, 0x2e, 0x00,
  0x01, 0x00, 0x00, 0x00, 0x14, 0x00, 0x00, 0x00, 0x00, 0x00, 0x0e, 0x00,
  0x18, 0x00, 0x14, 0x00, 0x10, 0x00, 0x0c, 0x00, 0x08, 0x00, 0x04, 0x00,
  0x0e, 0x00, 0x00, 0x00, 0x14, 0x00, 0x00, 0x00, 0x1c, 0x00, 0x00, 0x00,
  0x64, 0x02, 0x00, 0x00, 0x68, 0x02, 0x00, 0x00, 0x6c, 0x02, 0x00, 0x00,
  0x04, 0x00, 0x00, 0x00, 0x6d, 0x61, 0x69, 0x6e, 0x00, 0x00, 0x00, 0x00,
  0x08, 0x00, 0x00, 0x00, 0xfc, 0x01, 0x00, 0x00, 0x98, 0x01, 0x00, 0x00,
  0x44, 0x01, 0x00, 0x00, 0x00, 0x01, 0x00, 0x00, 0xbc, 0x00, 0x00, 0x00,
  0x78, 0x00, 0x00, 0x00, 0x40, 0x00, 0x00, 0x00, 0x04, 0x00, 0x00, 0x00,
  0x92, 0xfe, 0xff, 0xff, 0x1c, 0x00, 0x00, 0x00, 0x00, 0x00, 0x00, 0x09,
  0x1c, 0x00, 0x00, 0x00, 0x20, 0x00, 0x00, 0x00, 0x04, 0x00, 0x00, 0x00,
  0x00, 0x00, 0x06, 0x00, 0x08, 0x00, 0x04, 0x00, 0x06, 0x00, 0x00, 0x00,
  0x00, 0x00, 0x80, 0x3f, 0x01, 0x00, 0x00, 0x00, 0x11, 0x00, 0x00, 0x00,
  0x01, 0x00, 0x00, 0x00, 0x10, 0x00, 0x00, 0x00, 0x5a, 0xff, 0xff, 0xff,
  0x14, 0x00, 0x00, 0x00, 0x00, 0x00, 0x00, 0x08, 0x10, 0x00, 0x00, 0x00,
  0x14, 0x00, 0x00, 0x00, 0x03, 0x00, 0x00, 0x00, 0x9c, 0xf1, 0xff, 0xff,
  0x01, 0x00, 0x00, 0x00, 0x10, 0x00, 0x00, 0x00, 0x03, 0x00, 0x00, 0x00,
  0x0f, 0x00, 0x00, 0x00, 0x03, 0x00, 0x00, 0x00, 0x02, 0x00, 0x00, 0x00,
  0xfe, 0xfe, 0xff, 0xff, 0x1c, 0x00, 0x00, 0x00, 0x00, 0x00, 0x00, 0x08,
  0x1c, 0x00, 0x00, 0x00, 0x20, 0x00, 0x00, 0x00, 0x03, 0x00, 0x00, 0x00,
  0x00, 0x00, 0x06, 0x00, 0x08, 0x00, 0x07, 0x00, 0x06, 0x00, 0x00, 0x00,
  0x00, 0x00, 0x00, 0x01, 0x01, 0x00, 0x00, 0x00, 0x0f, 0x00, 0x00, 0x00,
  0x03, 0x00, 0x00, 0x00, 0x0e, 0x00, 0x00, 0x00, 0x05, 0x00, 0x00, 0x00,
  0x04, 0x00, 0x00, 0x00, 0xce, 0xff, 0xff, 0xff, 0x14, 0x00, 0x00, 0x00,
  0x00, 0x00, 0x00, 0x1b, 0x10, 0x00, 0x00, 0x00, 0x14, 0x00, 0x00, 0x00,
  0x02, 0x00, 0x00, 0x00, 0x10, 0xf2, 0xff, 0xff, 0x01, 0x00, 0x00, 0x00,
  0x0e, 0x00, 0x00, 0x00, 0x02, 0x00, 0x00, 0x00, 0x0d, 0x00, 0x00, 0x00,
  0x01, 0x00, 0x00, 0x00, 0x00, 0x00, 0x0e, 0x00, 0x18, 0x00, 0x14, 0x00,
  0x10, 0x00, 0x0c, 0x00, 0x0b, 0x00, 0x04, 0x00, 0x0e, 0x00, 0x00, 0x00,
  0x14, 0x00, 0x00, 0x00, 0x00, 0x00, 0x00, 0x05, 0x24, 0x00, 0x00, 0x00,
  0x28, 0x00, 0x00, 0x00, 0x01, 0x00, 0x00, 0x00, 0x6e, 0xff, 0xff, 0xff,
  0x02, 0x00, 0x00, 0x00, 0x02, 0x00, 0x00, 0x00, 0x02, 0x00, 0x00, 0x00,
  0x02, 0x00, 0x00, 0x00, 0x00, 0x00, 0x00, 0x01, 0x01, 0x00, 0x00, 0x00,
  0x0d, 0x00, 0x00, 0x00, 0x01, 0x00, 0x00, 0x00, 0x0c, 0x00, 0x00, 0x00,
  0x5e, 0xff, 0xff, 0xff, 0x10, 0x00, 0x00, 0x00, 0x00, 0x00, 0x00, 0x01,
  0x1c, 0x00, 0x00, 0x00, 0x20, 0x00, 0x00, 0x00, 0x50, 0xff, 0xff, 0xff,
  0x00, 0x00, 0x00, 0x01, 0x01, 0x00, 0x00, 0x00, 0x01, 0x00, 0x00, 0x00,
  0x00, 0x00, 0x00, 0x01, 0x01, 0x00, 0x00, 0x00, 0x0c, 0x00, 0x00, 0x00,
  0x03, 0x00, 0x00, 0x00, 0x0b, 0x00, 0x00, 0x00, 0x07, 0x00, 0x00, 0x00,
  0x06, 0x00, 0x00, 0x00, 0x00, 0x00, 0x0e, 0x00, 0x1a, 0x00, 0x14, 0x00,
  0x10, 0x00, 0x0c, 0x00, 0x0b, 0x00, 0x04, 0x00, 0x0e, 0x00, 0x00, 0x00,
  0x24, 0x00, 0x00, 0x00, 0x00, 0x00, 0x00, 0x05, 0x34, 0x00, 0x00, 0x00,
  0x38, 0x00, 0x00, 0x00, 0x01, 0x00, 0x00, 0x00, 0x00, 0x00, 0x0e, 0x00,
  0x18, 0x00, 0x17, 0x00, 0x10, 0x00, 0x0c, 0x00, 0x08, 0x00, 0x04, 0x00,
  0x0e, 0x00, 0x00, 0x00, 0x02, 0x00, 0x00, 0x00, 0x02, 0x00, 0x00, 0x00,
  0x02, 0x00, 0x00, 0x00, 0x02, 0x00, 0x00, 0x00, 0x00, 0x00, 0x00, 0x01,
  0x01, 0x00, 0x00, 0x00, 0x0b, 0x00, 0x00, 0x00, 0x01, 0x00, 0x00, 0x00,
  0x0a, 0x00, 0x00, 0x00, 0x00, 0x00, 0x0e, 0x00, 0x14, 0x00, 0x00, 0x00,
  0x10, 0x00, 0x0c, 0x00, 0x0b, 0x00, 0x04, 0x00, 0x0e, 0x00, 0x00, 0x00,
  0x1c, 0x00, 0x00, 0x00, 0x00, 0x00, 0x00, 0x01, 0x28, 0x00, 0x00, 0x00,
  0x2c, 0x00, 0x00, 0x00, 0x0c, 0x00, 0x14, 0x00, 0x13, 0x00, 0x0c, 0x00,
  0x08, 0x00, 0x07, 0x00, 0x0c, 0x00, 0x00, 0x00, 0x00, 0x00, 0x00, 0x01,
  0x01, 0x00, 0x00, 0x00, 0x01, 0x00, 0x00, 0x00, 0x00, 0x00, 0x00, 0x01,
  0x01, 0x00, 0x00, 0x00, 0x0a, 0x00, 0x00, 0x00, 0x03, 0x00, 0x00, 0x00,
  0x00, 0x00, 0x00, 0x00, 0x09, 0x00, 0x00, 0x00, 0x08, 0x00, 0x00, 0x00,
  0x01, 0x00, 0x00, 0x00, 0x11, 0x00, 0x00, 0x00, 0x01, 0x00, 0x00, 0x00,
  0x00, 0x00, 0x00, 0x00, 0x12, 0x00, 0x00, 0x00, 0xb4, 0x0c, 0x00, 0x00,
  0x58, 0x0c, 0x00, 0x00, 0xc8, 0x0b, 0x00, 0x00, 0x4c, 0x0b, 0x00, 0x00,
  0x38, 0x0a, 0x00, 0x00, 0x1c, 0x09, 0x00, 0x00, 0x08, 0x08, 0x00, 0x00,
  0xe4, 0x06, 0x00, 0x00, 0x30, 0x06, 0x00, 0x00, 0x6c, 0x05, 0x00, 0x00,
  0x98, 0x04, 0x00, 0x00, 0xfc, 0x03, 0x00, 0x00, 0x08, 0x03, 0x00, 0x00,
  0x6c, 0x02, 0x00, 0x00, 0xd8, 0x01, 0x00, 0x00, 0x24, 0x01, 0x00, 0x00,
  0x80, 0x00, 0x00, 0x00, 0x04, 0x00, 0x00, 0x00, 0xaa, 0xf3, 0xff, 0xff,
  0x00, 0x00, 0x00, 0x01, 0x18, 0x00, 0x00, 0x00, 0x20, 0x00, 0x00, 0x00,
  0x3c, 0x00, 0x00, 0x00, 0x12, 0x00, 0x00, 0x00, 0x00, 0x00, 0x00, 0x09,
  0x50, 0x00, 0x00, 0x00, 0x02, 0x00, 0x00, 0x00, 0xff, 0xff, 0xff, 0xff,
  0x03, 0x00, 0x00, 0x00, 0x8c, 0xf3, 0xff, 0xff, 0x08, 0x00, 0x00, 0x00,
  0x10, 0x00, 0x00, 0x00, 0x01, 0x00, 0x00, 0x00, 0x80, 0xff, 0xff, 0xff,
  0xff, 0xff, 0xff, 0xff, 0x01, 0x00, 0x00, 0x00, 0x00, 0x00, 0x80, 0x3b,
  0x1b, 0x00, 0x00, 0x00, 0x53, 0x74, 0x61, 0x74, 0x65, 0x66, 0x75, 0x6c,
  0x50, 0x61, 0x72, 0x74, 0x69, 0x74, 0x69, 0x6f, 0x6e, 0x65, 0x64, 0x43,
  0x61, 0x6c, 0x6c, 0x5f, 0x31, 0x3a, 0x30, 0x00, 0x02, 0x00, 0x00, 0x00,
  0x01, 0x00, 0x00, 0x00, 0x03, 0x00, 0x00, 0x00, 0x22, 0xf4, 0xff, 0xff,
  0x00, 0x00, 0x00, 0x01, 0x18, 0x00, 0x00, 0x00, 0x20, 0x00, 0x00, 0x00,
  0x40, 0x00, 0x00, 0x00, 0x11, 0x00, 0x00, 0x00, 0x00, 0x00, 0x00, 0x09,
  0x78, 0x00, 0x00, 0x00, 0x02, 0x00, 0x00, 0x00, 0xff, 0xff, 0xff, 0xff,
  0x03, 0x00, 0x00, 0x00, 0x04, 0xf4, 0xff, 0xff, 0x08, 0x00, 0x00, 0x00,
  0x14, 0x00, 0x00, 0x00, 0x01, 0x00, 0x00, 0x00, 0x11, 0x00, 0x00, 0x00,
  0x00, 0x00, 0x00, 0x00, 0x00, 0x00, 0x00, 0x00, 0x01, 0x00, 0x00, 0x00,
  0xc6, 0xbf, 0x74, 0x3e, 0x3c, 0x00, 0x00, 0x00, 0x73, 0x65, 0x71, 0x75,
  0x65, 0x6e, 0x74, 0x69, 0x61, 0x6c, 0x5f, 0x31, 0x2f, 0x64, 0x65, 0x6e,
  0x73, 0x65, 0x5f, 0x31, 0x5f, 0x32, 0x2f, 0x4d, 0x61, 0x74, 0x4d, 0x75,
  0x6c, 0x3b, 0x73, 0x65, 0x71, 0x75, 0x65, 0x6e, 0x74, 0x69, 0x61, 0x6c,
  0x5f, 0x31, 0x2f, 0x64, 0x65, 0x6e, 0x73, 0x65, 0x5f, 0x31, 0x5f, 0x32,
  0x2f, 0x42, 0x69, 0x61, 0x73, 0x41, 0x64, 0x64, 0x00, 0x00, 0x00, 0x00,
  0x02, 0x00, 0x00, 0x00, 0x01, 0x00, 0x00, 0x00, 0x03, 0x00, 0x00, 0x00,
  0xc2, 0xf4, 0xff, 0xff, 0x00, 0x00, 0x00, 0x01, 0x18, 0x00, 0x00, 0x00,
  0x20, 0x00, 0x00, 0x00, 0x3c, 0x00, 0x00, 0x00, 0x10, 0x00, 0x00, 0x00,
  0x00, 0x00, 0x00, 0x09, 0x88, 0x00, 0x00, 0x00, 0x02, 0x00, 0x00, 0x00,
  0xff, 0xff, 0xff, 0xff, 0x10, 0x00, 0x00, 0x00, 0xa4, 0xf4, 0xff, 0xff,
  0x08, 0x00, 0x00, 0x00, 0x10, 0x00, 0x00, 0x00, 0x01, 0x00, 0x00, 0x00,
  0x80, 0xff, 0xff, 0xff, 0xff, 0xff, 0xff, 0xff, 0x01, 0x00, 0x00, 0x00,
  0x20, 0xd2, 0x51, 0x3d, 0x52, 0x00, 0x00, 0x00, 0x73, 0x65, 0x71, 0x75,
  0x65, 0x6e, 0x74, 0x69, 0x61, 0x6c, 0x5f, 0x31, 0x2f, 0x64, 0x65, 0x6e,
  0x73, 0x65, 0x5f, 0x31, 0x2f, 0x4d, 0x61, 0x74, 0x4d, 0x75, 0x6c, 0x3b,
  0x73, 0x65, 0x71, 0x75, 0x65, 0x6e, 0x74, 0x69, 0x61, 0x6c, 0x5f, 0x31,
  0x2f, 0x64, 0x65, 0x6e, 0x73, 0x65, 0x5f, 0x31, 0x2f, 0x52, 0x65, 0x6c,
  0x75, 0x3b, 0x73, 0x65, 0x71, 0x75, 0x65, 0x6e, 0x74, 0x69, 0x61, 0x6c,
  0x5f, 0x31, 0x2f, 0x64, 0x65, 0x6e, 0x73, 0x65, 0x5f, 0x31, 0x2f, 0x42,
  0x69, 0x61, 0x73, 0x41, 0x64, 0x64, 0x00, 0x00, 0x02, 0x00, 0x00, 0x00,
  0x01, 0x00, 0x00, 0x00, 0x10, 0x00, 0x00, 0x00, 0x72, 0xf5, 0xff, 0xff,
  0x00, 0x00, 0x00, 0x01, 0x18, 0x00, 0x00, 0x00, 0x20, 0x00, 0x00, 0x00,
  0x40, 0x00, 0x00, 0x00, 0x0f, 0x00, 0x00, 0x00, 0x00, 0x00, 0x00, 0x09,
  0x68, 0x00, 0x00, 0x00, 0x02, 0x00, 0x00, 0x00, 0xff, 0xff, 0xff, 0xff,
  0x10, 0x00, 0x00, 0x00, 0x54, 0xf5, 0xff, 0xff, 0x08, 0x00, 0x00, 0x00,
  0x14, 0x00, 0x00, 0x00, 0x01, 0x00, 0x00, 0x00, 0x80, 0xff, 0xff, 0xff,
  0xff, 0xff, 0xff, 0xff, 0x00, 0x00, 0x00, 0x00, 0x01, 0x00, 0x00, 0x00,
  0xa1, 0xaa, 0xcf, 0x3c, 0x2c, 0x00, 0x00, 0x00, 0x73, 0x65, 0x71, 0x75,
  0x65, 0x6e, 0x74, 0x69, 0x61, 0x6c, 0x5f, 0x31, 0x2f, 0x67, 0x6c, 0x6f,
  0x62, 0x61, 0x6c, 0x5f, 0x61, 0x76, 0x65, 0x72, 0x61, 0x67, 0x65, 0x5f,
  0x70, 0x6f, 0x6f, 0x6c, 0x69, 0x6e, 0x67, 0x32, 0x64, 0x5f, 0x31, 0x2f,
  0x4d, 0x65, 0x61, 0x6e, 0x00, 0x00, 0x00, 0x00, 0x02, 0x00, 0x00, 0x00,
  0x01, 0x00, 0x00, 0x00, 0x10, 0x00, 0x00, 0x00, 0x02, 0xf6, 0xff, 0xff,
  0x00, 0x00, 0x00, 0x01, 0x18, 0x00, 0x00, 0x00, 0x28, 0x00, 0x00, 0x00,
  0x44, 0x00, 0x00, 0x00, 0x0e, 0x00, 0x00, 0x00, 0x00, 0x00, 0x00, 0x09,
  0x68, 0x00, 0x00, 0x00, 0x04, 0x00, 0x00, 0x00, 0xff, 0xff, 0xff, 0xff,
  0x05, 0x00, 0x00, 0x00, 0x05, 0x00, 0x00, 0x00, 0x10, 0x00, 0x00, 0x00,
  0xec, 0xf5, 0xff, 0xff, 0x08, 0x00, 0x00, 0x00, 0x10, 0x00, 0x00, 0x00,
  0x01, 0x00, 0x00, 0x00, 0x80, 0xff, 0xff, 0xff, 0xff, 0xff, 0xff, 0xff,
  0x01, 0x00, 0x00, 0x00, 0x07, 0x51, 0x25, 0x3d, 0x28, 0x00, 0x00, 0x00,
  0x73, 0x65, 0x71, 0x75, 0x65, 0x6e, 0x74, 0x69, 0x61, 0x6c, 0x5f, 0x31,
  0x2f, 0x6d, 0x61, 0x78, 0x5f, 0x70, 0x6f, 0x6f, 0x6c, 0x69, 0x6e, 0x67,
  0x32, 0x64, 0x5f, 0x31, 0x5f, 0x32, 0x2f, 0x4d, 0x61, 0x78, 0x50, 0x6f,
  0x6f, 0x6c, 0x32, 0x64, 0x00, 0x00, 0x00, 0x00, 0x04, 0x00, 0x00, 0x00,
  0x01, 0x00, 0x00, 0x00, 0x05, 0x00, 0x00, 0x00, 0x05, 0x00, 0x00, 0x00,
  0x10, 0x00, 0x00, 0x00, 0x9a, 0xf6, 0xff, 0xff, 0x00, 0x00, 0x00, 0x01,
  0x18, 0x00, 0x00, 0x00, 0x28, 0x00, 0x00, 0x00, 0x44, 0x00, 0x00, 0x00,
  0x0d, 0x00, 0x00, 0x00, 0x00, 0x00, 0x00, 0x09, 0xc0, 0x00, 0x00, 0x00,
  0x04, 0x00, 0x00, 0x00, 0xff, 0xff, 0xff, 0xff, 0x0b, 0x00, 0x00, 0x00,
  0x0b, 0x00, 0x00, 0x00, 0x10, 0x00, 0x00, 0x00, 0x84, 0xf6, 0xff, 0xff,
  0x08, 0x00, 0x00, 0x00, 0x10, 0x00, 0x00, 0x00, 0x01, 0x00, 0x00, 0x00,
  0x80, 0xff, 0xff, 0xff, 0xff, 0xff, 0xff, 0xff, 0x01, 0x00, 0x00, 0x00,
  0x07, 0x51, 0x25, 0x3d, 0x80, 0x00, 0x00, 0x00, 0x73, 0x65, 0x71, 0x75,
  0x65, 0x6e, 0x74, 0x69, 0x61, 0x6c, 0x5f, 0x31, 0x2f, 0x63, 0x6f, 0x6e,
  0x76, 0x32, 0x64, 0x5f, 0x31, 0x5f, 0x32, 0x2f, 0x52, 0x65, 0x6c, 0x75,
  0x3b, 0x73, 0x65, 0x71, 0x75, 0x65, 0x6e, 0x74, 0x69, 0x61, 0x6c, 0x5f,
  0x31, 0x2f, 0x63, 0x6f, 0x6e, 0x76, 0x32, 0x64, 0x5f, 0x31, 0x5f, 0x32,
  0x2f, 0x42, 0x69, 0x61, 0x73, 0x41, 0x64, 0x64, 0x3b, 0x73, 0x65, 0x71,
  0x75, 0x65, 0x6e, 0x74, 0x69, 0x61, 0x6c, 0x5f, 0x31, 0x2f, 0x63, 0x6f,
  0x6e, 0x76, 0x32, 0x64, 0x5f, 0x31, 0x5f, 0x32, 0x2f, 0x63, 0x6f, 0x6e,
  0x76, 0x6f, 0x6c, 0x75, 0x74, 0x69, 0x6f, 0x6e, 0x3b, 0x73, 0x65, 0x71,
  0x75, 0x65, 0x6e, 0x74, 0x69, 0x61, 0x6c, 0x5f, 0x31, 0x2f, 0x63, 0x6f,
  0x6e, 0x76, 0x32, 0x64, 0x5f, 0x31, 0x5f, 0x32, 0x2f, 0x53, 0x71, 0x75,
  0x65, 0x65, 0x7a, 0x65, 0x00, 0x00, 0x00, 0x00, 0x04, 0x00, 0x00, 0x00,
  0x01, 0x00, 0x00, 0x00, 0x0b, 0x00, 0x00, 0x00, 0x0b, 0x00, 0x00, 0x00,
  0x10, 0x00, 0x00, 0x00, 0x8a, 0xf7, 0xff, 0xff, 0x00, 0x00, 0x00, 0x01,
  0x18, 0x00, 0x00, 0x00, 0x28, 0x00, 0x00, 0x00, 0x48, 0x00, 0x00, 0x00,
  0x0c, 0x00, 0x00, 0x00, 0x00, 0x00, 0x00, 0x09, 0x68, 0x00, 0x00, 0x00,
  0x04, 0x00, 0x00, 0x00, 0xff, 0xff, 0xff, 0xff, 0x0d, 0x00, 0x00, 0x00,
  0x0d, 0x00, 0x00, 0x00, 0x08, 0x00, 0x00, 0x00, 0x74, 0xf7, 0xff, 0xff,
  0x08, 0x00, 0x00, 0x00, 0x14, 0x00, 0x00, 0x00, 0x01, 0x00, 0x00, 0x00,
  0x80, 0xff, 0xff, 0xff, 0xff, 0xff, 0xff, 0xff, 0x00, 0x00, 0x00, 0x00,
  0x01, 0x00, 0x00, 0x00, 0x67, 0xa6, 0x68, 0x3c, 0x26, 0x00, 0x00, 0x00,
  0x73, 0x65, 0x71, 0x75, 0x65, 0x6e, 0x74, 0x69, 0x61, 0x6c, 0x5f, 0x31,
  0x2f, 0x6d, 0x61, 0x78, 0x5f, 0x70, 0x6f, 0x6f, 0x6c, 0x69, 0x6e, 0x67,
  0x32, 0x64, 0x5f, 0x31, 0x2f, 0x4d, 0x61, 0x78, 0x50, 0x6f, 0x6f, 0x6c,
  0x32, 0x64, 0x00, 0x00, 0x04, 0x00, 0x00, 0x00, 0x01, 0x00, 0x00, 0x00,
  0x0d, 0x00, 0x00, 0x00, 0x0d, 0x00, 0x00, 0x00, 0x08, 0x00, 0x00, 0x00,
  0x22, 0xf8, 0xff, 0xff, 0x00, 0x00, 0x00, 0x01, 0x18, 0x00, 0x00, 0x00,
  0x28, 0x00, 0x00, 0x00, 0x48, 0x00, 0x00, 0x00, 0x0b, 0x00, 0x00, 0x00,
  0x00, 0x00, 0x00, 0x09, 0xa0, 0x00, 0x00, 0x00, 0x04, 0x00, 0x00, 0x00,
  0xff, 0xff, 0xff, 0xff, 0x1a, 0x00, 0x00, 0x00, 0x1a, 0x00, 0x00, 0x00,
  0x08, 0x00, 0x00, 0x00, 0x0c, 0xf8, 0xff, 0xff, 0x08, 0x00, 0x00, 0x00,
  0x14, 0x00, 0x00, 0x00, 0x01, 0x00, 0x00, 0x00, 0x80, 0xff, 0xff, 0xff,
  0xff, 0xff, 0xff, 0xff, 0x00, 0x00, 0x00, 0x00, 0x01, 0x00, 0x00, 0x00,
  0x67, 0xa6, 0x68, 0x3c, 0x5c, 0x00, 0x00, 0x00, 0x73, 0x65, 0x71, 0x75,
  0x65, 0x6e, 0x74, 0x69, 0x61, 0x6c, 0x5f, 0x31, 0x2f, 0x63, 0x6f, 0x6e,
  0x76, 0x32, 0x64, 0x5f, 0x31, 0x2f, 0x52, 0x65, 0x6c, 0x75, 0x3b, 0x73,
  0x65, 0x71, 0x75, 0x65, 0x6e, 0x74, 0x69, 0x61, 0x6c, 0x5f, 0x31, 0x2f,
  0x63, 0x6f, 0x6e, 0x76, 0x32, 0x64, 0x5f, 0x31, 0x2f, 0x42, 0x69, 0x61,
  0x73, 0x41, 0x64, 0x64, 0x3b, 0x73, 0x65, 0x71, 0x75, 0x65, 0x6e, 0x74,
  0x69, 0x61, 0x6c, 0x5f, 0x31, 0x2f, 0x63, 0x6f, 0x6e, 0x76, 0x32, 0x64,
  0x5f, 0x31, 0x2f, 0x63, 0x6f, 0x6e, 0x76, 0x6f, 0x6c, 0x75, 0x74, 0x69,
  0x6f, 0x6e, 0x3b, 0x31, 0x00, 0x00, 0x00, 0x00, 0x04, 0x00, 0x00, 0x00,
  0x01, 0x00, 0x00, 0x00, 0x1a, 0x00, 0x00, 0x00, 0x1a, 0x00, 0x00, 0x00,
  0x08, 0x00, 0x00, 0x00, 0x4a, 0xf9, 0xff, 0xff, 0x00, 0x00, 0x00, 0x01,
  0x14, 0x00, 0x00, 0x00, 0x88, 0x00, 0x00, 0x00, 0x0a, 0x00, 0x00, 0x00,
  0x00, 0x00, 0x00, 0x09, 0x94, 0x00, 0x00, 0x00, 0xc4, 0xf8, 0xff, 0xff,
  0x08, 0x00, 0x00, 0x00, 0x4c, 0x00, 0x00, 0x00, 0x08, 0x00, 0x00, 0x00,
  0x00, 0x00, 0x00, 0x00, 0x00, 0x00, 0x00, 0x00, 0x00, 0x00, 0x00, 0x00,
  0x00, 0x00, 0x00, 0x00, 0x00, 0x00, 0x00, 0x00, 0x00, 0x00, 0x00, 0x00,
  0x00, 0x00, 0x00, 0x00, 0x00, 0x00, 0x00, 0x00, 0x00, 0x00, 0x00, 0x00,
  0x00, 0x00, 0x00, 0x00, 0x00, 0x00, 0x00, 0x00, 0x00, 0x00, 0x00, 0x00,
  0x00, 0x00, 0x00, 0x00, 0x00, 0x00, 0x00, 0x00, 0x00, 0x00, 0x00, 0x00,
  0x00, 0x00, 0x00, 0x00, 0x00, 0x00, 0x00, 0x00, 0x08, 0x00, 0x00, 0x00,
  0xf9, 0x4c, 0x1b, 0x3c, 0xe6, 0xc9, 0x01, 0x3c, 0x4e, 0x82, 0x20, 0x3c,
  0xb3, 0x8b, 0x00, 0x3c, 0x7f, 0x47, 0xe0, 0x3b, 0x16, 0xbb, 0x54, 0x3c,
  0xf7, 0xac, 0x31, 0x3c, 0xf9, 0xa1, 0x1a, 0x3c, 0x12, 0x00, 0x00, 0x00,
  0x74, 0x66, 0x6c, 0x2e, 0x70, 0x73, 0x65, 0x75, 0x64, 0x6f, 0x5f, 0x71,
  0x63, 0x6f, 0x6e, 0x73, 0x74, 0x37, 0x00, 0x00, 0x04, 0x00, 0x00, 0x00,
  0x08, 0x00, 0x00, 0x00, 0x03, 0x00, 0x00, 0x00, 0x03, 0x00, 0x00, 0x00,
  0x01, 0x00, 0x00, 0x00, 0x0a, 0xfa, 0xff, 0xff, 0x00, 0x00, 0x00, 0x01,
  0x14, 0x00, 0x00, 0x00, 0x84, 0x00, 0x00, 0x00, 0x09, 0x00, 0x00, 0x00,
  0x00, 0x00, 0x00, 0x02, 0x90, 0x00, 0x00, 0x00, 0x84, 0xf9, 0xff, 0xff,
  0x08, 0x00, 0x00, 0x00, 0x48, 0x00, 0x00, 0x00, 0x08, 0x00, 0x00, 0x00,
  0x00, 0x00, 0x00, 0x00, 0x00, 0x00, 0x00, 0x00, 0x00, 0x00, 0x00, 0x00,
  0x00, 0x00, 0x00, 0x00, 0x00, 0x00, 0x00, 0x00, 0x00, 0x00, 0x00, 0x00,
  0x00, 0x00, 0x00, 0x00, 0x00, 0x00, 0x00, 0x00, 0x00, 0x00, 0x00, 0x00,
  0x00, 0x00, 0x00, 0x00, 0x00, 0x00, 0x00, 0x00, 0x00, 0x00, 0x00, 0x00,
  0x00, 0x00, 0x00, 0x00, 0x00, 0x00, 0x00, 0x00, 0x00, 0x00, 0x00, 0x00,
  0x00, 0x00, 0x00, 0x00, 0x08, 0x00, 0x00, 0x00, 0xe2, 0xe8, 0x1b, 0x38,
  0x33, 0x4c, 0x02, 0x38, 0x72, 0x23, 0x21, 0x38, 0xc0, 0x0c, 0x01, 0x38,
  0xa9, 0x28, 0xe1, 0x37, 0xa7, 0x90, 0x55, 0x38, 0x57, 0x5f, 0x32, 0x38,
  0x37, 0x3d, 0x1b, 0x38, 0x12, 0x00, 0x00, 0x00, 0x74, 0x66, 0x6c, 0x2e,
  0x70, 0x73, 0x65, 0x75, 0x64, 0x6f, 0x5f, 0x71, 0x63, 0x6f, 0x6e, 0x73,
  0x74, 0x36, 0x00, 0x00, 0x01, 0x00, 0x00, 0x00, 0x08, 0x00, 0x00, 0x00,
  0xba, 0xfa, 0xff, 0xff, 0x00, 0x00, 0x00, 0x01, 0x14, 0x00, 0x00, 0x00,
  0xe8, 0x00, 0x00, 0x00, 0x08, 0x00, 0x00, 0x00, 0x00, 0x00, 0x00, 0x09,
  0xf4, 0x00, 0x00, 0x00, 0x34, 0xfa, 0xff, 0xff, 0x08, 0x00, 0x00, 0x00,
  0x8c, 0x00, 0x00, 0x00, 0x10, 0x00, 0x00, 0x00, 0x00, 0x00, 0x00, 0x00,
  0x00, 0x00, 0x00, 0x00, 0x00, 0x00, 0x00, 0x00, 0x00, 0x00, 0x00, 0x00,
  0x00, 0x00, 0x00, 0x00, 0x00, 0x00, 0x00, 0x00, 0x00, 0x00, 0x00, 0x00,
  0x00, 0x00, 0x00, 0x00, 0x00, 0x00, 0x00, 0x00, 0x00, 0x00, 0x00, 0x00,
  0x00, 0x00, 0x00, 0x00, 0x00, 0x00, 0x00, 0x00, 0x00, 0x00, 0x00, 0x00,
  0x00, 0x00, 0x00, 0x00, 0x00, 0x00, 0x00, 0x00, 0x00, 0x00, 0x00, 0x00,
  0x00, 0x00, 0x00, 0x00, 0x00, 0x00, 0x00, 0x00, 0x00, 0x00, 0x00, 0x00,
  0x00, 0x00, 0x00, 0x00, 0x00, 0x00, 0x00, 0x00, 0x00, 0x00, 0x00, 0x00,
  0x00, 0x00, 0x00, 0x00, 0x00, 0x00, 0x00, 0x00, 0x00, 0x00, 0x00, 0x00,
  0x00, 0x00, 0x00, 0x00, 0x00, 0x00, 0x00, 0x00, 0x00, 0x00, 0x00, 0x00,
  0x00, 0x00, 0x00, 0x00, 0x00, 0x00, 0x00, 0x00, 0x00, 0x00, 0x00, 0x00,
  0x00, 0x00, 0x00, 0x00, 0x00, 0x00, 0x00, 0x00, 0x10, 0x00, 0x00, 0x00,
  0x00, 0xad, 0x4a, 0x3b, 0xef, 0x96, 0x2e, 0x3c, 0x4d, 0xad, 0x83, 0x3b,
  0x44, 0xf2, 0xb0, 0x3b, 0xae, 0x98, 0x98, 0x3c, 0xa3, 0xac, 0x42, 0x3b,
  0x49, 0x65, 0x8d, 0x3b, 0x5f, 0xe1, 0x12, 0x3c, 0x55, 0x8f, 0xd0, 0x3b,
  0xca, 0x5f, 0x00, 0x3c, 0x9b, 0x76, 0x1d, 0x3c, 0x1b, 0xc9, 0x0a, 0x3c,
  0xba, 0x3a, 0x6c, 0x3c, 0xdd, 0x1a, 0x6b, 0x3b, 0xa4, 0xa8, 0x51, 0x3c,
  0x75, 0x7d, 0x92, 0x3b, 0x12, 0x00, 0x00, 0x00, 0x74, 0x66, 0x6c, 0x2e,
  0x70, 0x73, 0x65, 0x75, 0x64, 0x6f, 0x5f, 0x71, 0x63, 0x6f, 0x6e, 0x73,
  0x74, 0x35, 0x00, 0x00, 0x04, 0x00, 0x00, 0x00, 0x10, 0x00, 0x00, 0x00,
  0x03, 0x00, 0x00, 0x00, 0x03, 0x00, 0x00, 0x00, 0x08, 0x00, 0x00, 0x00,
  0xda, 0xfb, 0xff, 0xff, 0x00, 0x00, 0x00, 0x01, 0x14, 0x00, 0x00, 0x00,
  0xe4, 0x00, 0x00, 0x00, 0x07, 0x00, 0x00, 0x00, 0x00, 0x00, 0x00, 0x02,
  0xf0, 0x00, 0x00, 0x00, 0x54, 0xfb, 0xff, 0xff, 0x08, 0x00, 0x00, 0x00,
  0x88, 0x00, 0x00, 0x00, 0x10, 0x00, 0x00, 0x00, 0x00, 0x00, 0x00, 0x00,
  0x00, 0x00, 0x00, 0x00, 0x00, 0x00, 0x00, 0x00, 0x00, 0x00, 0x00, 0x00,
  0x00, 0x00, 0x00, 0x00, 0x00, 0x00, 0x00, 0x00, 0x00, 0x00, 0x00, 0x00,
  0x00, 0x00, 0x00, 0x00, 0x00, 0x00, 0x00, 0x00, 0x00, 0x00, 0x00, 0x00,
  0x00, 0x00, 0x00, 0x00, 0x00, 0x00, 0x00, 0x00, 0x00, 0x00, 0x00, 0x00,
  0x00, 0x00, 0x00, 0x00, 0x00, 0x00, 0x00, 0x00, 0x00, 0x00, 0x00, 0x00,
  0x00, 0x00, 0x00, 0x00, 0x00, 0x00, 0x00, 0x00, 0x00, 0x00, 0x00, 0x00,
  0x00, 0x00, 0x00, 0x00, 0x00, 0x00, 0x00, 0x00, 0x00, 0x00, 0x00, 0x00,
  0x00, 0x00, 0x00, 0x00, 0x00, 0x00, 0x00, 0x00, 0x00, 0x00, 0x00, 0x00,
  0x00, 0x00, 0x00, 0x00, 0x00, 0x00, 0x00, 0x00, 0x00, 0x00, 0x00, 0x00,
  0x00, 0x00, 0x00, 0x00, 0x00, 0x00, 0x00, 0x00, 0x00, 0x00, 0x00, 0x00,
  0x00, 0x00, 0x00, 0x00, 0x10, 0x00, 0x00, 0x00, 0x86, 0x30, 0x38, 0x38,
  0x45, 0xaa, 0x1e, 0x39, 0x4a, 0x55, 0x6f, 0x38, 0x92, 0xce, 0xa0, 0x38,
  0x8e, 0xad, 0x8a, 0x39, 0xfe, 0xea, 0x30, 0x38, 0xb3, 0x7f, 0x80, 0x38,
  0xb7, 0x7b, 0x05, 0x39, 0x76, 0x89, 0xbd, 0x38, 0x82, 0x54, 0xe9, 0x38,
  0xd7, 0x19, 0x0f, 0x39, 0xed, 0x40, 0xfc, 0x38, 0xc6, 0xae, 0x56, 0x39,
  0x2a, 0xa9, 0x55, 0x38, 0x1c, 0x89, 0x3e, 0x39, 0xea, 0x20, 0x85, 0x38,
  0x12, 0x00, 0x00, 0x00, 0x74, 0x66, 0x6c, 0x2e, 0x70, 0x73, 0x65, 0x75,
  0x64, 0x6f, 0x5f, 0x71, 0x63, 0x6f, 0x6e, 0x73, 0x74, 0x34, 0x00, 0x00,
  0x01, 0x00, 0x00, 0x00, 0x10, 0x00, 0x00, 0x00, 0xea, 0xfc, 0xff, 0xff,
  0x00, 0x00, 0x00, 0x01, 0x14, 0x00, 0x00, 0x00, 0xe8, 0x00, 0x00, 0x00,
  0x06, 0x00, 0x00, 0x00, 0x00, 0x00, 0x00, 0x09, 0xf4, 0x00, 0x00, 0x00,
  0x64, 0xfc, 0xff, 0xff, 0x08, 0x00, 0x00, 0x00, 0x8c, 0x00, 0x00, 0x00,
  0x10, 0x00, 0x00, 0x00, 0x00, 0x00, 0x00, 0x00, 0x00, 0x00, 0x00, 0x00,
  0x00, 0x00, 0x00, 0x00, 0x00, 0x00, 0x00, 0x00, 0x00, 0x00, 0x00, 0x00,
  0x00, 0x00, 0x00, 0x00, 0x00, 0x00, 0x00, 0x00, 0x00, 0x00, 0x00, 0x00,
  0x00, 0x00, 0x00, 0x00, 0x00, 0x00, 0x00, 0x00, 0x00, 0x00, 0x00, 0x00,
  0x00, 0x00, 0x00, 0x00, 0x00, 0x00, 0x00, 0x00, 0x00, 0x00, 0x00, 0x00,
  0x00, 0x00, 0x00, 0x00, 0x00, 0x00, 0x00, 0x00, 0x00, 0x00, 0x00, 0x00,
  0x00, 0x00, 0x00, 0x00, 0x00, 0x00, 0x00, 0x00, 0x00, 0x00, 0x00, 0x00,
  0x00, 0x00, 0x00, 0x00, 0x00, 0x00, 0x00, 0x00, 0x00, 0x00, 0x00, 0x00,
  0x00, 0x00, 0x00, 0x00, 0x00, 0x00, 0x00, 0x00, 0x00, 0x00, 0x00, 0x00,
  0x00, 0x00, 0x00, 0x00, 0x00, 0x00, 0x00, 0x00, 0x00, 0x00, 0x00, 0x00,
  0x00, 0x00, 0x00, 0x00, 0x00, 0x00, 0x00, 0x00, 0x00, 0x00, 0x00, 0x00,
  0x00, 0x00, 0x00, 0x00, 0x10, 0x00, 0x00, 0x00, 0x1e, 0x03, 0x9f, 0x3c,
  0x72, 0x40, 0x72, 0x3c, 0xfb, 0x0b, 0x03, 0x3c, 0x67, 0x8c, 0xa9, 0x3c,
  0xcc, 0xff, 0x76, 0x3c, 0x8a, 0x19, 0x5f, 0x3b, 0xa1, 0x88, 0x95, 0x3b,
  0x74, 0xcf, 0x8a, 0x3c, 0x9a, 0x75, 0xb0, 0x3b, 0x8c, 0x30, 0x7e, 0x3c,
  0xa6, 0x92, 0x59, 0x3b, 0xd5, 0x82, 0x3e, 0x3c, 0x30, 0xfe, 0x79, 0x3c,
  0x7b, 0xcb, 0x7a, 0x3b, 0xba, 0xaf, 0x28, 0x3c, 0x75, 0xce, 0x55, 0x3b,
  0x12, 0x00, 0x00, 0x00, 0x74, 0x66, 0x6c, 0x2e, 0x70, 0x73, 0x65, 0x75,
  0x64, 0x6f, 0x5f, 0x71, 0x63, 0x6f, 0x6e, 0x73, 0x74, 0x33, 0x00, 0x00,
  0x02, 0x00, 0x00, 0x00, 0x10, 0x00, 0x00, 0x00, 0x10, 0x00, 0x00, 0x00,
  0x02, 0xfe, 0xff, 0xff, 0x00, 0x00, 0x00, 0x01, 0x14, 0x00, 0x00, 0x00,
  0xe4, 0x00, 0x00, 0x00, 0x05, 0x00, 0x00, 0x00, 0x00, 0x00, 0x00, 0x02,
  0xf0, 0x00, 0x00, 0x00, 0x7c, 0xfd, 0xff, 0xff, 0x08, 0x00, 0x00, 0x00,
  0x88, 0x00, 0x00, 0x00, 0x10, 0x00, 0x00, 0x00, 0x00, 0x00, 0x00, 0x00,
  0x00, 0x00, 0x00, 0x00, 0x00, 0x00, 0x00, 0x00, 0x00, 0x00, 0x00, 0x00,
  0x00, 0x00, 0x00, 0x00, 0x00, 0x00, 0x00, 0x00, 0x00, 0x00, 0x00, 0x00,
  0x00, 0x00, 0x00, 0x00, 0x00, 0x00, 0x00, 0x00, 0x00, 0x00, 0x00, 0x00,
  0x00, 0x00, 0x00, 0x00, 0x00, 0x00, 0x00, 0x00, 0x00, 0x00, 0x00, 0x00,
  0x00, 0x00, 0x00, 0x00, 0x00, 0x00, 0x00, 0x00, 0x00, 0x00, 0x00, 0x00,
  0x00, 0x00, 0x00, 0x00, 0x00, 0x00, 0x00, 0x00, 0x00, 0x00, 0x00, 0x00,
  0x00, 0x00, 0x00, 0x00, 0x00, 0x00, 0x00, 0x00, 0x00, 0x00, 0x00, 0x00,
  0x00, 0x00, 0x00, 0x00, 0x00, 0x00, 0x00, 0x00, 0x00, 0x00, 0x00, 0x00,
  0x00, 0x00, 0x00, 0x00, 0x00, 0x00, 0x00, 0x00, 0x00, 0x00, 0x00, 0x00,
  0x00, 0x00, 0x00, 0x00, 0x00, 0x00, 0x00, 0x00, 0x00, 0x00, 0x00, 0x00,
  0x00, 0x00, 0x00, 0x00, 0x10, 0x00, 0x00, 0x00, 0x81, 0xfd, 0x00, 0x3a,
  0x93, 0x83, 0xc4, 0x39, 0x11, 0x9c, 0x54, 0x39, 0x89, 0x89, 0x09, 0x3a,
  0x77, 0x5d, 0xc8, 0x39, 0x5a, 0xfa, 0xb4, 0x38, 0x4a, 0x9a, 0xf2, 0x38,
  0x88, 0x34, 0xe1, 0x39, 0xb5, 0x24, 0x0f, 0x39, 0xad, 0x32, 0xce, 0x39,
  0x98, 0x7e, 0xb0, 0x38, 0xc5, 0x8a, 0x9a, 0x39, 0x29, 0xcb, 0xca, 0x39,
  0xb1, 0x71, 0xcb, 0x38, 0x86, 0xd6, 0x88, 0x39, 0x72, 0x70, 0xad, 0x38,
  0x12, 0x00, 0x00, 0x00, 0x74, 0x66, 0x6c, 0x2e, 0x70, 0x73, 0x65, 0x75,
  0x64, 0x6f, 0x5f, 0x71, 0x63, 0x6f, 0x6e, 0x73, 0x74, 0x32, 0x00, 0x00,
  0x01, 0x00, 0x00, 0x00, 0x10, 0x00, 0x00, 0x00, 0x12, 0xff, 0xff, 0xff,
  0x00, 0x00, 0x00, 0x01, 0x14, 0x00, 0x00, 0x00, 0x48, 0x00, 0x00, 0x00,
  0x04, 0x00, 0x00, 0x00, 0x00, 0x00, 0x00, 0x09, 0x54, 0x00, 0x00, 0x00,
  0x8c, 0xfe, 0xff, 0xff, 0x08, 0x00, 0x00, 0x00, 0x20, 0x00, 0x00, 0x00,
  0x03, 0x00, 0x00, 0x00, 0x00, 0x00, 0x00, 0x00, 0x00, 0x00, 0x00, 0x00,
  0x00, 0x00, 0x00, 0x00, 0x00, 0x00, 0x00, 0x00, 0x00, 0x00, 0x00, 0x00,
  0x00, 0x00, 0x00, 0x00, 0x03, 0x00, 0x00, 0x00, 0x5e, 0x10, 0xa4, 0x3c,
  0xc9, 0xd5, 0x2b, 0x3c, 0x42, 0x82, 0x3c, 0x3c, 0x12, 0x00, 0x00, 0x00,
  0x74, 0x66, 0x6c, 0x2e, 0x70, 0x73, 0x65, 0x75, 0x64, 0x6f, 0x5f, 0x71,
  0x63, 0x6f, 0x6e, 0x73, 0x74, 0x31, 0x00, 0x00, 0x02, 0x00, 0x00, 0x00,
  0x03, 0x00, 0x00, 0x00, 0x10, 0x00, 0x00, 0x00, 0x8a, 0xff, 0xff, 0xff,
  0x00, 0x00, 0x00, 0x01, 0x14, 0x00, 0x00, 0x00, 0x48, 0x00, 0x00, 0x00,
  0x03, 0x00, 0x00, 0x00, 0x00, 0x00, 0x00, 0x02, 0x54, 0x00, 0x00, 0x00,
  0x04, 0xff, 0xff, 0xff, 0x08, 0x00, 0x00, 0x00, 0x20, 0x00, 0x00, 0x00,
  0x03, 0x00, 0x00, 0x00, 0x00, 0x00, 0x00, 0x00, 0x00, 0x00, 0x00, 0x00,
  0x00, 0x00, 0x00, 0x00, 0x00, 0x00, 0x00, 0x00, 0x00, 0x00, 0x00, 0x00,
  0x00, 0x00, 0x00, 0x00, 0x03, 0x00, 0x00, 0x00, 0x07, 0x78, 0x86, 0x3a,
  0x94, 0xd6, 0x0c, 0x3a, 0x12, 0x81, 0x1a, 0x3a, 0x11, 0x00, 0x00, 0x00,
  0x74, 0x66, 0x6c, 0x2e, 0x70, 0x73, 0x65, 0x75, 0x64, 0x6f, 0x5f, 0x71,
  0x63, 0x6f, 0x6e, 0x73, 0x74, 0x00, 0x00, 0x00, 0x01, 0x00, 0x00, 0x00,
  0x03, 0x00, 0x00, 0x00, 0x00, 0x00, 0x16, 0x00, 0x1c, 0x00, 0x18, 0x00,
  0x17, 0x00, 0x10, 0x00, 0x0c, 0x00, 0x08, 0x00, 0x00, 0x00, 0x00, 0x00,
  0x00, 0x00, 0x07, 0x00, 0x16, 0x00, 0x00, 0x00, 0x00, 0x00, 0x00, 0x01,
  0x18, 0x00, 0x00, 0x00, 0x18, 0x00, 0x00, 0x00, 0x02, 0x00, 0x00, 0x00,
  0x00, 0x00, 0x00, 0x02, 0x20, 0x00, 0x00, 0x00, 0x04, 0x00, 0x04, 0x00,
  0x04, 0x00, 0x00, 0x00, 0x0e, 0x00, 0x00, 0x00, 0x61, 0x72, 0x69, 0x74,
  0x68, 0x2e, 0x63, 0x6f, 0x6e, 0x73, 0x74, 0x61, 0x6e, 0x74, 0x00, 0x00,
  0x01, 0x00, 0x00, 0x00, 0x02, 0x00, 0x00, 0x00, 0x00, 0x00, 0x16, 0x00,
  0x20, 0x00, 0x1c, 0x00, 0x1b, 0x00, 0x14, 0x00, 0x10, 0x00, 0x0c, 0x00,
  0x00, 0x00, 0x00, 0x00, 0x08, 0x00, 0x07, 0x00, 0x16, 0x00, 0x00, 0x00,
  0x00, 0x00, 0x00, 0x01, 0x18, 0x00, 0x00, 0x00, 0x34, 0x00, 0x00, 0x00,
  0x54, 0x00, 0x00, 0x00, 0x01, 0x00, 0x00, 0x00, 0x00, 0x00, 0x00, 0x09,
  0x6c, 0x00, 0x00, 0x00, 0x04, 0x00, 0x00, 0x00, 0xff, 0xff, 0xff, 0xff,
  0x1c, 0x00, 0x00, 0x00, 0x1c, 0x00, 0x00, 0x00, 0x01, 0x00, 0x00, 0x00,
  0x0c, 0x00, 0x0c, 0x00, 0x00, 0x00, 0x00, 0x00, 0x08, 0x00, 0x04, 0x00,
  0x0c, 0x00, 0x00, 0x00, 0x08, 0x00, 0x00, 0x00, 0x14, 0x00, 0x00, 0x00,
  0x01, 0x00, 0x00, 0x00, 0x80, 0xff, 0xff, 0xff, 0xff, 0xff, 0xff, 0xff,
  0x00, 0x00, 0x00, 0x00, 0x01, 0x00, 0x00, 0x00, 0x81, 0x80, 0x80, 0x3b,
  0x1d, 0x00, 0x00, 0x00, 0x73, 0x65, 0x72, 0x76, 0x69, 0x6e, 0x67, 0x5f,
  0x64, 0x65, 0x66, 0x61, 0x75, 0x6c, 0x74, 0x5f, 0x69, 0x6e, 0x70, 0x75,
  0x74, 0x5f, 0x6c, 0x61, 0x79, 0x65, 0x72, 0x3a, 0x30, 0x00, 0x00, 0x00,
  0x04, 0x00, 0x00, 0x00, 0x01, 0x00, 0x00, 0x00, 0x1c, 0x00, 0x00, 0x00,
  0x1c, 0x00, 0x00, 0x00, 0x01, 0x00, 0x00, 0x00, 0x05, 0x00, 0x00, 0x00,
  0x60, 0x00, 0x00, 0x00, 0x40, 0x00, 0x00, 0x00, 0x2c, 0x00, 0x00, 0x00,
  0x18, 0x00, 0x00, 0x00, 0x04, 0x00, 0x00, 0x00, 0xc0, 0xff, 0xff, 0xff,
  0x19, 0x00, 0x00, 0x00, 0x02, 0x00, 0x00, 0x00, 0x00, 0x00, 0x00, 0x19,
  0xd0, 0xff, 0xff, 0xff, 0x09, 0x00, 0x00, 0x00, 0x04, 0x00, 0x00, 0x00,
  0x00, 0x00, 0x00, 0x09, 0xe0, 0xff, 0xff, 0xff, 0x28, 0x00, 0x00, 0x00,
  0x02, 0x00, 0x00, 0x00, 0x00, 0x00, 0x00, 0x28, 0xf0, 0xff, 0xff, 0xff,
  0x11, 0x00, 0x00, 0x00, 0x02, 0x00, 0x00, 0x00, 0x00, 0x00, 0x00, 0x11,
  0x0c, 0x00, 0x10, 0x00, 0x0f, 0x00, 0x00, 0x00, 0x08, 0x00, 0x04, 0x00,
  0x0c, 0x00, 0x00, 0x00, 0x03, 0x00, 0x00, 0x00, 0x03, 0x00, 0x00, 0x00,
  0x00, 0x00, 0x00, 0x03
};
unsigned int g_model_len = 6568;
